1
2
3
4
5
6
7
8
9
10
11
2
12
13
14
155
16
17
18
15
20
5
65
32
54
25
32
30
39
40
1
2
3
4
5
6
7
8
9
10
11
2
12
13
14
155
16
17
18
15
20
5
65
32
54
25
32
30
39
40
1
2
3
4
5
6
7
8
9
10
11
2
12
13
14
155
16
17
18
15
20
5
65
32
54
25
32
30
39
40
1
2
3
4
5
6
7
8
9
10
11
2
12
13
14
155
16
17
18
15
20
5
65
32
54
25
32
30
39
40
1
2
3
4
5
6
7
8
9
10
11
2
12
13
14
155
16
17
18
15
20
5
65
32
54
25
32
30
39
40
1
2
3
4
5
6
7
8
9
10
11
2
12
13
14
155
16
17
18
15
20
5
65
32
54
25
32
30
39
40
1
2
3
4
5
6
7
8
9
10
11
2
12
13
14
155
16
17
18
15
20
5
65
32
54
25
32
30
39
40
1
2
3
4
5
6
7
8
9
10
11
2
12
13
14
155
16
17
18
15
20
5
65
32
54
25
32
30
39
40
1
2
3
4
5
6
7
8
9
10
11
2
12
13
14
155
16
17
18
15
20
5
65
32
54
25
32
30
39
40
1
2
3
4
5
6
7
8
9
10
11
2
12
13
14
155
16
17
18
15
20
5
65
32
54
25
32
30
39
40
1
2
3
4
5
6
7
8
9
10
11
2
12
13
14
155
16
17
18
15
20
5
65
32
54
25
32
30
39
40
1
2
3
4
5
6
7
8
9
10
11
2
12
13
14
155
16
17
18
15
20
5
65
32
54
25
32
30
39
40
1
2
3
4
5
6
7
8
9
10
11
2
12
13
14
155
16
17
18
15
20
5
65
32
54
25
32
30
39
40
1
2
3
4
5
6
7
8
9
10
11
2
12
13
14
155
16
17
18
15
20
5
65
32
54
25
32
30
39
40
1
2
3
4
5
6
7
8
9
10
11
2
12
13
14
155
16
17
18
15
20
5
65
32
54
25
32
30
39
40
1
2
3
4
5
6
7
8
9
10
11
2
12
13
14
155
16
17
18
15
20
5
65
32
54
25
32
30
39
40
1
2
3
4
5
6
7
8
9
10
11
2
12
13
14
155
16
17
18
15
20
5
65
32
54
25
32
30
39
40
1
2
3
4
5
6
7
8
9
10
11
2
12
13
14
155
16
17
18
15
20
5
65
32
54
25
32
30
39
40
1
2
3
4
5
6
7
8
9
10
11
2
12
13
14
155
16
17
18
15
20
5
65
32
54
25
32
30
39
40
1
2
3
4
5
6
7
8
9
10
11
2
12
13
14
155
16
17
18
15
20
5
65
32
54
25
32
30
39
40
1
2
3
4
5
6
7
8
9
10
11
2
12
13
14
155
16
17
18
15
20
5
65
32
54
25
32
30
39
40
1
2
3
4
5
6
7
8
9
10
11
2
12
13
14
155
16
17
18
15
20
5
65
32
54
25
32
30
39
40
1
2
3
4
5
6
7
8
9
10
11
2
12
13
14
155
16
17
18
15
20
5
65
32
54
25
32
30
39
40
1
2
3
4
5
6
7
8
9
10
11
2
12
13
14
155
16
17
18
15
20
5
65
32
54
25
32
30
39
40
1
2
3
4
5
6
7
8
9
10
11
2
12
13
14
155
16
17
18
15
20
5
65
32
54
25
32
30
39
40
1
2
3
4
5
6
7
8
9
10
11
2
12
13
14
155
16
17
18
15
20
5
65
32
54
25
32
30
39
40
1
2
3
4
5
6
7
8
9
10
11
2
12
13
14
155
16
17
18
15
20
5
65
32
54
25
32
30
39
40
1
2
3
4
5
6
7
8
9
10
11
2
12
13
14
155
16
17
18
15
20
5
65
32
54
25
32
30
39
40
1
2
3
4
5
6
7
8
9
10
11
2
12
13
14
155
16
17
18
15
20
5
65
32
54
25
32
30
39
40
1
2
3
4
5
6
7
8
9
10
11
2
12
13
14
155
16
17
18
15
20
5
65
32
54
25
32
30
39
40
1
2
3
4
5
6
7
8
9
10
11
2
12
13
14
155
16
17
18
15
20
5
65
32
54
25
32
30
39
40
1
2
3
4
5
6
7
8
9
10
11
2
12
13
14
155
16
17
18
15
20
5
65
32
54
25
32
30
39
40
1
2
3
4
5
6
7
8
9
10
11
2
12
13
14
155
16
17
18
15
20
5
65
32
54
25
32
30
39
40
1
2
3
4
5
6
7
8
9
10
11
2
12
13
14
155
16
17
18
15
20
5
65
32
54
25
32
30
39
40
1
2
3
4
5
6
7
8
9
10
11
2
12
13
14
155
16
17
18
15
20
5
65
32
54
25
32
30
39
40
1
2
3
4
5
6
7
8
9
10
11
2
12
13
14
155
16
17
18
15
20
5
65
32
54
25
32
30
39
40
1
2
3
4
5
6
7
8
9
10
11
2
12
13
14
155
16
17
18
15
20
5
65
32
54
25
32
30
39
40
